<unk>	0
<s>	0
</s>	0
<pad>	0
<tool_call>	0
<tool_result>	0
<final>	0
<unsupported>	0
<error>	0
0	0
1	0
2	0
3	0
4	0
5	0
6	0
7	0
8	0
9	0
<0x00>	0
<0x01>	0
<0x02>	0
<0x03>	0
<0x04>	0
<0x05>	0
<0x06>	0
<0x07>	0
<0x08>	0
<0x09>	0
<0x0A>	0
<0x0B>	0
<0x0C>	0
<0x0D>	0
<0x0E>	0
<0x0F>	0
<0x10>	0
<0x11>	0
<0x12>	0
<0x13>	0
<0x14>	0
<0x15>	0
<0x16>	0
<0x17>	0
<0x18>	0
<0x19>	0
<0x1A>	0
<0x1B>	0
<0x1C>	0
<0x1D>	0
<0x1E>	0
<0x1F>	0
<0x20>	0
<0x21>	0
<0x22>	0
<0x23>	0
<0x24>	0
<0x25>	0
<0x26>	0
<0x27>	0
<0x28>	0
<0x29>	0
<0x2A>	0
<0x2B>	0
<0x2C>	0
<0x2D>	0
<0x2E>	0
<0x2F>	0
<0x30>	0
<0x31>	0
<0x32>	0
<0x33>	0
<0x34>	0
<0x35>	0
<0x36>	0
<0x37>	0
<0x38>	0
<0x39>	0
<0x3A>	0
<0x3B>	0
<0x3C>	0
<0x3D>	0
<0x3E>	0
<0x3F>	0
<0x40>	0
<0x41>	0
<0x42>	0
<0x43>	0
<0x44>	0
<0x45>	0
<0x46>	0
<0x47>	0
<0x48>	0
<0x49>	0
<0x4A>	0
<0x4B>	0
<0x4C>	0
<0x4D>	0
<0x4E>	0
<0x4F>	0
<0x50>	0
<0x51>	0
<0x52>	0
<0x53>	0
<0x54>	0
<0x55>	0
<0x56>	0
<0x57>	0
<0x58>	0
<0x59>	0
<0x5A>	0
<0x5B>	0
<0x5C>	0
<0x5D>	0
<0x5E>	0
<0x5F>	0
<0x60>	0
<0x61>	0
<0x62>	0
<0x63>	0
<0x64>	0
<0x65>	0
<0x66>	0
<0x67>	0
<0x68>	0
<0x69>	0
<0x6A>	0
<0x6B>	0
<0x6C>	0
<0x6D>	0
<0x6E>	0
<0x6F>	0
<0x70>	0
<0x71>	0
<0x72>	0
<0x73>	0
<0x74>	0
<0x75>	0
<0x76>	0
<0x77>	0
<0x78>	0
<0x79>	0
<0x7A>	0
<0x7B>	0
<0x7C>	0
<0x7D>	0
<0x7E>	0
<0x7F>	0
<0x80>	0
<0x81>	0
<0x82>	0
<0x83>	0
<0x84>	0
<0x85>	0
<0x86>	0
<0x87>	0
<0x88>	0
<0x89>	0
<0x8A>	0
<0x8B>	0
<0x8C>	0
<0x8D>	0
<0x8E>	0
<0x8F>	0
<0x90>	0
<0x91>	0
<0x92>	0
<0x93>	0
<0x94>	0
<0x95>	0
<0x96>	0
<0x97>	0
<0x98>	0
<0x99>	0
<0x9A>	0
<0x9B>	0
<0x9C>	0
<0x9D>	0
<0x9E>	0
<0x9F>	0
<0xA0>	0
<0xA1>	0
<0xA2>	0
<0xA3>	0
<0xA4>	0
<0xA5>	0
<0xA6>	0
<0xA7>	0
<0xA8>	0
<0xA9>	0
<0xAA>	0
<0xAB>	0
<0xAC>	0
<0xAD>	0
<0xAE>	0
<0xAF>	0
<0xB0>	0
<0xB1>	0
<0xB2>	0
<0xB3>	0
<0xB4>	0
<0xB5>	0
<0xB6>	0
<0xB7>	0
<0xB8>	0
<0xB9>	0
<0xBA>	0
<0xBB>	0
<0xBC>	0
<0xBD>	0
<0xBE>	0
<0xBF>	0
<0xC0>	0
<0xC1>	0
<0xC2>	0
<0xC3>	0
<0xC4>	0
<0xC5>	0
<0xC6>	0
<0xC7>	0
<0xC8>	0
<0xC9>	0
<0xCA>	0
<0xCB>	0
<0xCC>	0
<0xCD>	0
<0xCE>	0
<0xCF>	0
<0xD0>	0
<0xD1>	0
<0xD2>	0
<0xD3>	0
<0xD4>	0
<0xD5>	0
<0xD6>	0
<0xD7>	0
<0xD8>	0
<0xD9>	0
<0xDA>	0
<0xDB>	0
<0xDC>	0
<0xDD>	0
<0xDE>	0
<0xDF>	0
<0xE0>	0
<0xE1>	0
<0xE2>	0
<0xE3>	0
<0xE4>	0
<0xE5>	0
<0xE6>	0
<0xE7>	0
<0xE8>	0
<0xE9>	0
<0xEA>	0
<0xEB>	0
<0xEC>	0
<0xED>	0
<0xEE>	0
<0xEF>	0
<0xF0>	0
<0xF1>	0
<0xF2>	0
<0xF3>	0
<0xF4>	0
<0xF5>	0
<0xF6>	0
<0xF7>	0
<0xF8>	0
<0xF9>	0
<0xFA>	0
<0xFB>	0
<0xFC>	0
<0xFD>	0
<0xFE>	0
<0xFF>	0
er	-0
▁t	-1
▁a	-2
in	-3
re	-4
ha	-5
▁o	-6
he	-7
en	-8
al	-9
▁the	-10
es	-11
on	-12
▁b	-13
▁m	-14
▁of	-15
▁p	-16
ti	-17
is	-18
▁d	-19
ve	-20
nd	-21
▁c	-22
th	-23
▁re	-24
an	-25
▁s	-26
▁ha	-27
ter	-28
ge	-29
▁and	-30
▁+	-31
▁to	-32
▁is	-33
ra	-34
or	-35
ol	-36
ar	-37
hat	-38
What	-39
▁f	-40
ow	-41
▁=	-42
te	-43
ent	-44
ver	-45
age	-46
om	-47
le	-48
▁has	-49
tion	-50
▁in	-51
▁man	-52
▁w	-53
▁many	-54
if	-55
ou	-56
im	-57
id	-58
▁per	-59
res	-60
ma	-61
ce	-62
it	-63
▁h	-64
les	-65
▁be	-66
▁e	-67
ci	-68
ct	-69
▁n	-70
</	-71
ul	-72
rs	-73
▁tra	-74
to	-75
▁pr	-76
xp	-77
▁do	-78
▁af	-79
▁after	-80
How	-81
▁have	-82
▁aver	-83
▁average	-84
▁bo	-85
ing	-86
ress	-87
ed	-88
ion	-89
qu	-90
eter	-91
ia	-92
xpress	-93
se	-94
▁l	-95
ore	-96
cent	-97
▁percent	-98
▁mi	-99
tool	-100
▁u	-101
▁com	-102
all	-103
pl	-104
▁by	-105
um	-106
cip	-107
ri	-108
incip	-109
us	-110
":	-111
{"	-112
}</	-113
incipal	-114
val	-115
xpression	-116
ate	-117
ys	-118
▁$	-119
▁on	-120
▁principal	-121
its	-122
ck	-123
ction	-124
pe	-125
ber	-126
▁an	-127
main	-128
▁remain	-129
▁miles	-130
▁are	-131
▁num	-132
▁number	-133
▁fra	-134
▁pl	-135
ence	-136
▁-	-137
▁percentage	-138
valu	-139
▁un	-140
▁fraction	-141
tw	-142
ours	-143
The	-144
vert	-145
fer	-146
ther	-147
ove	-148
▁x	-149
olve	-150
onvert	-151
rea	-152
▁bu	-153
▁rem	-154
ult	-155
ec	-156
vel	-157
▁hours	-158
ine	-159
ation	-160
ith	-161
▁how	-162
▁spe	-163
ference	-164
ang	-165
▁more	-166
▁wid	-167
▁remove	-168
rt	-169
▁with	-170
▁travel	-171
eng	-172
een	-173
▁dif	-174
tal	-175
▁if	-176
▁comb	-177
▁removed	-178
▁train	-179
▁How	-180
▁they	-181
▁toge	-182
▁together	-183
▁buys	-184
▁total	-185
tween	-186
▁difference	-187
▁between	-188
angle	-189
ength	-190
▁rect	-191
imeter	-192
▁width	-193
▁length	-194
▁perimeter	-195
▁rectangle	-196
▁its	-197
▁What	-198
▁speed	-199
▁travels	-200
▁plus	-201
value	-202
ining	-203
▁does	-204
▁combining	-205
sq	-206
sqrt	-207
ati	-208
ble	-209
call	-210
irs	-211
ides	-212
tu	-213
wer	-214
":"	-215
"}</	-216
expression	-217
rease	-218
▁both	-219
▁sides	-220
swer	-221
▁answer	-222
aria	-223
ify	-224
▁g	-225
mine	-226
sti	-227
impl	-228
iv	-229
etermine	-230
Convert	-231
Simpl	-232
Simplify	-233
ig	-234
▁v	-235
▁co	-236
▁tw	-237
ub	-238
▁ap	-239
▁*	-240
▁/	-241
err	-242
pr	-243
am	-244
error	-245
ok	-246
▁for	-247
▁equ	-248
ound	-249
ars	-250
▁pa	-251
su	-252
pu	-253
inal	-254
result	-255
fore	-256
ies	-257
for	-258
▁div	-259
▁con	-260
of	-261
Sub	-262
irst	-263
▁before	-264
Th	-265
solve	-266
▁qu	-267
▁equation	-268
▁two	-269
This	-270
ero	-271
zero	-272
ta	-273
fi	-274
▁res	-275
ulate	-276
il	-277
ind	-278
▁expression	-279
eg	-280
mate	-281
▁k	-282
per	-283
▁×	-284
ative	-285
fici	-286
Com	-287
Cal	-288
du	-289
▁en	-290
Calc	-291
Calculate	-292
Determine	-293
ffici	-294
▁cha	-295
fficient	-296
Esti	-297
ters	-298
Estimate	-299
▁im	-300
tra	-301
Find	-302
Solve	-303
ac	-304
now	-305
crease	-306
pute	-307
Compute	-308
et	-309
▁varia	-310
egative	-311
der	-312
increase	-313
nown	-314
oa	-315
▁li	-316
▁variable	-317
ef	-318
est	-319
sufficient	-320
dec	-321
decrease	-322
▁comp	-323
ic	-324
ide	-325
▁units	-326
We	-327
▁zero	-328
st	-329
at	-330
ree	-331
han	-332
ply	-333
Fati	-334
Fatima	-335
Wei	-336
ust	-337
Sof	-338
Sofia	-339
Lia	-340
Liam	-341
de	-342
Maria	-343
▁wor	-344
ji	-345
Ken	-346
Kenji	-347
Ais	-348
Aisha	-349
ign	-350
▁tre	-351
dent	-352
▁pro	-353
Pri	-354
ly	-355
Noa	-356
Noah	-357
rig	-358
▁mar	-359
Jam	-360
James	-361
ays	-362
lear	-363
ya	-364
Priya	-365
duce	-366
▁ex	-367
tt	-368
ins	-369
▁coins	-370
tudent	-371
pro	-372
ers	-373
▁bri	-374
▁student	-375
▁as	-376
▁days	-377
tract	-378
ons	-379
▁se	-380
▁ba	-381
▁de	-382
ples	-383
▁apples	-384
ulti	-385
olu	-386
ges	-387
bles	-388
▁pages	-389
▁marbles	-390
▁sm	-391
okies	-392
▁cookies	-393
▁no	-394
▁trees	-395
▁dec	-396
▁students	-397
cks	-398
▁bricks	-399
▁und	-400
▁real	-401
oks	-402
▁books	-403
ty	-404
anti	-405
oll	-406
olate	-407
ets	-408
ick	-409
▁tick	-410
▁tickets	-411
xes	-412
▁boxes	-413
▁orig	-414
omin	-415
kers	-416
▁cars	-417
▁workers	-418
▁liters	-419
ous	-420
ur	-421
▁chairs	-422
ultiply	-423
▁clear	-424
▁divide	-425
▁reduce	-426
▁small	-427
▁r	-428
oun	-429
▁inter	-430
no	-431
▁final	-432
ttles	-433
▁bottles	-434
iqu	-435
ique	-436
three	-437
▁doll	-438
▁dollars	-439
":-	-440
▁mix	-441
▁gall	-442
▁gallons	-443
tute	-444
stitute	-445
▁convert	-446
▁original	-447
▁isolate	-448
▁sign	-449
heck	-450
▁back	-451
▁value	-452
Multiply	-453
▁quanti	-454
▁fr	-455
▁than	-456
Express	-457
▁smaller	-458
os	-459
olution	-460
▁reduced	-461
un	-462
▁solution	-463
imal	-464
▁den	-465
▁Sofia	-466
proper	-467
▁first	-468
▁mixed	-469
▁improper	-470
able	-471
▁converting	-472
▁result	-473
▁unique	-474
▁Wei	-475
▁insufficient	-476
▁Fatima	-477
▁determine	-478
Check	-479
▁into	-480
▁known	-481
Substitute	-482
ment	-483
por	-484
tire	-485
▁James	-486
▁Maria	-487
Subtract	-488
▁Noah	-489
▁negative	-490
ties	-491
aring	-492
▁comparing	-493
▁quantities	-494
First	-495
▁Liam	-496
▁entire	-497
▁from	-498
isor	-499
▁must	-500
▁divisor	-501
▁remainder	-502
not	-503
ator	-504
▁can	-505
▁cannot	-506
ominator	-507
▁denominator	-508
aces	-509
efin	-510
Round	-511
efined	-512
▁places	-513
▁decimal	-514
▁undefined	-515
▁Aisha	-516
▁Kenji	-517
ist	-518
▁valu	-519
▁values	-520
ut	-521
▁mo	-522
plies	-523
▁applies	-524
▁Priya	-525
com	-526
AP	-527
ity	-528
^-	-529
ran	-530
ond	-531
end	-532
ess	-533
red	-534
ose	-535
vi	-536
low	-537
ven	-538
over	-539
form	-540
ount	-541
are	-542
one	-543
av	-544
as	-545
oss	-546
tain	-547
che	-548
▁st	-549
isc	-550
ant	-551
ary	-552
▁exp	-553
gh	-554
und	-555
ail	-556
igu	-557
mal	-558
ir	-559
▁quar	-560
put	-561
li	-562
▁su	-563
igh	-564
act	-565
▁oper	-566
ppor	-567
ard	-568
▁wh	-569
ough	-570
inut	-571
inutes	-572
yd	-573
ue	-574
▁°	-575
ision	-576
onds	-577
ance	-578
enty	-579
▁hund	-580
▁twenty	-581
▁hundred	-582
▁le	-583
two	-584
forty	-585
ailable	-586
bigu	-587
biguous	-588
mon	-589
pt	-590
ofit	-591
▁quarters	-592
▁seven	-593
negative	-594
▁em	-595
ew	-596
known	-597
ise	-598
ure	-599
mat	-600
valid	-601
ect	-602
▁interest	-603
ag	-604
▁operation	-605
ted	-606
)"}</	-607
▁unit	-608
ad	-609
tive	-610
yment	-611
▁al	-612
ere	-613
▁unav	-614
▁unavailable	-615
▁payment	-616
▁mode	-617
▁round	-618
ambiguous	-619
▁rounding	-620
profit	-621
tic	-622
el	-623
div	-624
forma	-625
▁informa	-626
insufficient	-627
▁information	-628
ry	-629
formed	-630
malformed	-631
flow	-632
▁comput	-633
overflow	-634
▁computation	-635
ru	-636
principal	-637
use	-638
terest	-639
comp	-640
unknown	-641
compound	-642
invalid	-643
interest	-644
mis	-645
ched	-646
▁cons	-647
mismat	-648
mismatched	-649
In	-650
▁pre	-651
ight	-652
unsu	-653
pported	-654
unsupported	-655
APR	-656
tax	-657
ory	-658
loss	-659
▁ob	-660
disc	-661
discount	-662
▁at	-663
division	-664
cc	-665
thly	-666
monthly	-667
▁th	-668
tip	-669
▁cl	-670
▁ad	-671
Re	-672
pose	-673
▁or	-674
ft	-675
▁dist	-676
ap	-677
ay	-678
▁ar	-679
oc	-680
ner	-681
pect	-682
▁me	-683
rib	-684
dge	-685
ze	-686
rans	-687
ume	-688
ire	-689
ple	-690
ense	-691
oy	-692
enti	-693
come	-694
ual	-695
ture	-696
▁sec	-697
▁sub	-698
▁ne	-699
▁des	-700
▁rel	-701
▁cont	-702
hi	-703
▁par	-704
▁ins	-705
ach	-706
▁gen	-707
me	-708
ader	-709
ical	-710
▁kg	-711
▁op	-712
▁inst	-713
▁reg	-714
▁trans	-715
▁ra	-716
erve	-717
mm	-718
▁col	-719
▁mL	-720
▁lb	-721
▁j	-722
▁minutes	-723
▁cm	-724
ition	-725
rate	-726
▁mm	-727
lu	-728
▁K	-729
our	-730
rac	-731
ize	-732
▁yd	-733
lect	-734
km	-735
mg	-736
Pr	-737
▁km	-738
▁mg	-739
tead	-740
▁seconds	-741
lb	-742
mi	-743
▁ft	-744
sec	-745
▁oz	-746
seconds	-747
oz	-748
cm	-749
▁L	-750
ill	-751
hours	-752
port	-753
▁inv	-754
ote	-755
minutes	-756
kg	-757
▁ac	-758
mL	-759
▁dis	-760
og	-761
▁over	-762
▁sim	-763
▁sur	-764
▁ma	-765
sion	-766
quent	-767
ne	-768
▁gu	-769
▁we	-770
ible	-771
cei	-772
ish	-773
ason	-774
den	-775
cept	-776
round	-777
arm	-778
clu	-779
clude	-780
nt	-781
quence	-782
▁es	-783
read	-784
▁sha	-785
hase	-786
fy	-787
rict	-788
ke	-789
ury	-790
bit	-791
hn	-792
pa	-793
Con	-794
echn	-795
ca	-796
ctor	-797
ruct	-798
iti	-799
ature	-800
▁leg	-801
▁coun	-802
mit	-803
ority	-804
nal	-805
ute	-806
range	-807
ribute	-808
ari	-809
▁ab	-810
▁ev	-811
ject	-812
row	-813
view	-814
ceed	-815
tice	-816
cy	-817
ency	-818
ploy	-819
trate	-820
▁int	-821
ek	-822
cise	-823
ron	-824
less	-825
tem	-826
▁disc	-827
ile	-828
ague	-829
▁br	-830
▁gener	-831
▁min	-832
▁sta	-833
▁emp	-834
▁out	-835
▁pres	-836
▁fre	-837
▁where	-838
ral	-839
ward	-840
▁techn	-841
▁he	-842
lete	-843
▁ext	-844
▁sc	-845
▁sh	-846
▁def	-847
▁dep	-848
▁expl	-849
▁whe	-850
▁cap	-851
od	-852
▁fa	-853
▁occ	-854
▁conf	-855
▁employ	-856
ep	-857
iver	-858
▁chan	-859
▁gra	-860
ll	-861
pare	-862
▁cent	-863
▁pur	-864
orm	-865
▁prov	-866
▁ag	-867
Ex	-868
rive	-869
ram	-870
hic	-871
▁appro	-872
and	-873
arge	-874
dget	-875
ular	-876
fort	-877
erefore	-878
lo	-879
con	-880
tle	-881
cial	-882
conom	-883
ever	-884
ident	-885
ossible	-886
ceive	-887
force	-888
hicle	-889
stance	-890
em	-891
ace	-892
▁up	-893
inue	-894
ale	-895
bor	-896
crib	-897
cribe	-898
hange	-899
erge	-900
iable	-901
tical	-902
cum	-903
cape	-904
op	-905
eve	-906
ork	-907
duct	-908
lish	-909
rary	-910
ental	-911
rance	-912
ade	-913
idence	-914
ch	-915
prove	-916
quire	-917
ager	-918
oura	-919
change	-920
ourage	-921
portion	-922
ane	-923
itor	-924
ample	-925
itive	-926
pread	-927
cil	-928
eri	-929
ful	-930
ain	-931
ilar	-932
▁inc	-933
ource	-934
iar	-935
amil	-936
ital	-937
reat	-938
▁mod	-939
imate	-940
amiliar	-941
lief	-942
▁budget	-943
▁reader	-944
edia	-945
▁rec	-946
ink	-947
▁resume	-948
bt	-949
riter	-950
ustom	-951
ession	-952
ass	-953
ery	-954
fect	-955
imum	-956
eld	-957
ort	-958
ield	-959
kely	-960
▁resp	-961
▁econom	-962
▁continue	-963
tim	-964
line	-965
pear	-966
vant	-967
▁fin	-968
▁mon	-969
▁reason	-970
▁ef	-971
sure	-972
yond	-973
teady	-974
▁describe	-975
cle	-976
tiv	-977
▁sus	-978
▁most	-979
▁close	-980
rum	-981
vice	-982
▁reliable	-983
ific	-984
▁dra	-985
ention	-986
parate	-987
▁equal	-988
▁contain	-989
▁therefore	-990
Pro	-991
Res	-992
▁add	-993
light	-994
▁equi	-995
▁prepare	-996
ast	-997
hil	-998
irt	-999
mend	-1000
chase	-1001
river	-1002
▁what	-1003
ase	-1004
gan	-1005
uth	-1006
ince	-1007
olid	-1008
ouse	-1009
▁unc	-1010
ential	-1011
ganize	-1012
▁parti	-1013
▁compare	-1014
lex	-1015
vious	-1016
▁prof	-1017
▁proper	-1018
▁combine	-1019
▁ref	-1020
ccess	-1021
art	-1022
ider	-1023
sage	-1024
▁count	-1025
▁proportion	-1026
ice	-1027
▁bes	-1028
▁nar	-1029
urther	-1030
vation	-1031
▁frequent	-1032
gy	-1033
gin	-1034
▁ve	-1035
▁cir	-1036
▁sen	-1037
▁vehicle	-1038
▁familiar	-1039
gg	-1040
▁decade	-1041
▁exchange	-1042
▁distribute	-1043
ak	-1044
oad	-1045
rent	-1046
▁form	-1047
▁rele	-1048
ertain	-1049
▁design	-1050
▁ele	-1051
▁ind	-1052
▁farm	-1053
▁prog	-1054
though	-1055
▁beyond	-1056
▁interval	-1057
▁am	-1058
▁pos	-1059
▁som	-1060
dition	-1061
▁worth	-1062
pos	-1063
tore	-1064
▁mor	-1065
▁discover	-1066
tect	-1067
▁id	-1068
▁sche	-1069
▁identi	-1070
▁imp	-1071
▁beha	-1072
▁relate	-1073
▁ur	-1074
▁inte	-1075
▁pause	-1076
▁arrange	-1077
▁ann	-1078
▁att	-1079
▁similar	-1080
▁sequence	-1081
mand	-1082
▁dem	-1083
▁pas	-1084
▁auth	-1085
▁deep	-1086
▁prac	-1087
▁collect	-1088
▁separate	-1089
ite	-1090
▁custom	-1091
▁organize	-1092
▁loc	-1093
▁explain	-1094
▁fe	-1095
▁ear	-1096
▁mem	-1097
▁obs	-1098
▁empty	-1099
▁steady	-1100
▁though	-1101
▁further	-1102
▁pub	-1103
▁fact	-1104
▁inde	-1105
▁under	-1106
▁expense	-1107
▁ass	-1108
▁rou	-1109
▁instead	-1110
▁century	-1111
▁complete	-1112
▁dou	-1113
▁une	-1114
▁jour	-1115
▁prom	-1116
▁qual	-1117
▁class	-1118
▁initi	-1119
▁liter	-1120
▁sup	-1121
▁const	-1122
▁ess	-1123
▁care	-1124
▁dire	-1125
▁vari	-1126
▁although	-1127
En	-1128
▁y	-1129
▁jus	-1130
▁exact	-1131
▁rough	-1132
▁purchase	-1133
▁set	-1134
▁import	-1135
▁consider	-1136
here	-1137
▁income	-1138
▁precise	-1139
▁sufficient	-1140
▁cur	-1141
▁read	-1142
▁colle	-1143
▁consist	-1144
▁agree	-1145
▁state	-1146
▁week	-1147
▁review	-1148
▁eng	-1149
▁volu	-1150
ause	-1151
▁ver	-1152
De	-1153
ear	-1154
otion	-1155
Exp	-1156
pec	-1157
gal	-1158
qual	-1159
legal	-1160
unction	-1161
oat	-1162
orever	-1163
vest	-1164
Inter	-1165
▁reply	-1166
hip	-1167
iet	-1168
fare	-1169
ship	-1170
inciple	-1171
adership	-1172
umm	-1173
anel	-1174
spect	-1175
ummary	-1176
acy	-1177
table	-1178
pective	-1179
surance	-1180
peat	-1181
rative	-1182
▁share	-1183
sequent	-1184
hys	-1185
old	-1186
sal	-1187
wner	-1188
ferent	-1189
hysical	-1190
iversal	-1191
wise	-1192
itate	-1193
phere	-1194
rucial	-1195
therwise	-1196
acity	-1197
alary	-1198
timate	-1199
Su	-1200
ost	-1201
uss	-1202
cell	-1203
cellent	-1204
ogn	-1205
arget	-1206
atter	-1207
attle	-1208
erate	-1209
entive	-1210
ognize	-1211
bal	-1212
has	-1213
▁il	-1214
thod	-1215
hasis	-1216
hieve	-1217
lobal	-1218
ighbor	-1219
iverse	-1220
▁illegal	-1221
▁reserve	-1222
rn	-1223
pre	-1224
cedu	-1225
llow	-1226
loat	-1227
pret	-1228
rden	-1229
turn	-1230
amage	-1231
cedure	-1232
edical	-1233
ossess	-1234
courage	-1235
ominant	-1236
ountain	-1237
▁arrive	-1238
▁burden	-1239
sequence	-1240
▁unclear	-1241
isk	-1242
ange	-1243
irth	-1244
ecess	-1245
▁flow	-1246
aneous	-1247
ressure	-1248
ritical	-1249
ecessary	-1250
▁operate	-1251
ultaneous	-1252
St	-1253
xt	-1254
ame	-1255
arg	-1256
erit	-1257
idge	-1258
nect	-1259
rupt	-1260
text	-1261
vene	-1262
arger	-1263
indow	-1264
ormal	-1265
antial	-1266
heless	-1267
sitive	-1268
valent	-1269
eritage	-1270
ustrate	-1271
stantial	-1272
vertheless	-1273
ng	-1274
eil	-1275
arry	-1276
ateg	-1277
hile	-1278
ngth	-1279
onse	-1280
inion	-1281
eiling	-1282
ormous	-1283
rength	-1284
ulture	-1285
▁owner	-1286
ategory	-1287
▁forever	-1288
cumstance	-1289
ot	-1290
any	-1291
lap	-1292
ull	-1293
▁wel	-1294
asion	-1295
brary	-1296
endar	-1297
▁find	-1298
cipate	-1299
▁panel	-1300
inforce	-1301
ticular	-1302
▁legacy	-1303
otential	-1304
▁finding	-1305
▁welfare	-1306
▁physical	-1307
yp	-1308
ban	-1309
din	-1310
hen	-1311
joy	-1312
ayer	-1313
chen	-1314
lize	-1315
asure	-1316
liver	-1317
place	-1318
redit	-1319
dinary	-1320
itchen	-1321
tilize	-1322
ypical	-1323
▁emerge	-1324
▁finance	-1325
▁respond	-1326
▁narrative	-1327
▁universal	-1328
▁leadership	-1329
ney	-1330
ura	-1331
loor	-1332
pter	-1333
tach	-1334
tist	-1335
utri	-1336
ewhat	-1337
ework	-1338
grate	-1339
tempt	-1340
▁pers	-1341
uration	-1342
▁escape	-1343
▁insist	-1344
▁target	-1345
utrition	-1346
▁perspective	-1347
ro	-1348
tab	-1349
dule	-1350
jury	-1351
ning	-1352
oice	-1353
tand	-1354
uman	-1355
errit	-1356
istic	-1357
ustry	-1358
viron	-1359
ediate	-1360
roduce	-1361
▁shape	-1362
erience	-1363
tablish	-1364
erritory	-1365
▁attract	-1366
▁economy	-1367
▁receive	-1368
vironment	-1369
▁instance	-1370
Im	-1371
by	-1372
hy	-1373
rm	-1374
xi	-1375
aim	-1376
iod	-1377
irm	-1378
ogy	-1379
ord	-1380
alth	-1381
firm	-1382
rade	-1383
reme	-1384
hibit	-1385
ility	-1386
ledge	-1387
ology	-1388
scape	-1389
xious	-1390
▁above	-1391
▁draft	-1392
rateful	-1393
▁damage	-1394
▁modest	-1395
▁period	-1396
nowledge	-1397
▁estimate	-1398
▁insurance	-1399
▁subsequent	-1400
ht	-1401
mb	-1402
ark	-1403
ici	-1404
int	-1405
pid	-1406
ris	-1407
tun	-1408
ymb	-1409
ician	-1410
matic	-1411
ouple	-1412
reate	-1413
right	-1414
risis	-1415
twork	-1416
ymbol	-1417
illage	-1418
resent	-1419
ternal	-1420
tunity	-1421
▁rapid	-1422
▁trend	-1423
usician	-1424
▁action	-1425
▁oppose	-1426
▁capacity	-1427
pportunity	-1428
▁different	-1429
▁incentive	-1430
▁principle	-1431
▁recognize	-1432
itu	-1433
jor	-1434
zen	-1435
hold	-1436
ivil	-1437
racy	-1438
vise	-1439
amine	-1440
imary	-1441
ocial	-1442
sence	-1443
itizen	-1444
likely	-1445
ocracy	-1446
tivity	-1447
ximate	-1448
▁drive	-1449
▁trade	-1450
▁evolve	-1451
▁mental	-1452
▁sphere	-1453
ituation	-1454
ousehold	-1455
ximately	-1456
▁program	-1457
▁excellent	-1458
▁substantial	-1459
po	-1460
uf	-1461
ety	-1462
ict	-1463
abor	-1464
empo	-1465
ings	-1466
pete	-1467
resh	-1468
veal	-1469
agree	-1470
idden	-1471
isual	-1472
ufact	-1473
vance	-1474
adline	-1475
avings	-1476
cument	-1477
orough	-1478
redict	-1479
▁phase	-1480
▁quiet	-1481
▁ground	-1482
emporary	-1483
ufacture	-1484
vailable	-1485
▁document	-1486
▁function	-1487
▁resource	-1488
▁whatever	-1489
▁nevertheless	-1490
anw	-1491
lig	-1492
cipl	-1493
fere	-1494
lict	-1495
ocus	-1496
take	-1497
▁hes	-1498
arden	-1499
ditor	-1500
isten	-1501
▁legal	-1502
▁month	-1503
anwhile	-1504
cipline	-1505
riteria	-1506
traight	-1507
▁county	-1508
▁effect	-1509
▁exceed	-1510
▁repeat	-1511
▁reward	-1512
▁salary	-1513
ligation	-1514
timulate	-1515
▁approve	-1516
▁council	-1517
▁crucial	-1518
▁involve	-1519
▁duration	-1520
▁hesitate	-1521
▁incident	-1522
▁mountain	-1523
▁neighbor	-1524
▁possible	-1525
▁property	-1526
▁otherwise	-1527
▁simultaneous	-1528
erm	-1529
oal	-1530
sue	-1531
angu	-1532
just	-1533
tail	-1534
test	-1535
uine	-1536
vent	-1537
ceipt	-1538
iform	-1539
ntary	-1540
posal	-1541
ready	-1542
▁rise	-1543
action	-1544
appear	-1545
reater	-1546
▁float	-1547
▁theme	-1548
anguage	-1549
endency	-1550
lexible	-1551
ovement	-1552
▁attach	-1553
▁bridge	-1554
▁former	-1555
▁sector	-1556
▁achieve	-1557
▁comfort	-1558
▁regular	-1559
▁dominant	-1560
▁proposal	-1561
▁container	-1562
▁encourage	-1563
▁sensitive	-1564
▁territory	-1565
▁equivalent	-1566
Em	-1567
eat	-1568
lim	-1569
sfy	-1570
tig	-1571
ford	-1572
nder	-1573
orre	-1574
rink	-1575
rowd	-1576
titu	-1577
tune	-1578
estig	-1579
hance	-1580
icate	-1581
inate	-1582
▁wage	-1583
▁warm	-1584
atisfy	-1585
ension	-1586
orrect	-1587
titude	-1588
▁eager	-1589
▁habit	-1590
▁level	-1591
ificant	-1592
▁driver	-1593
▁global	-1594
▁modify	-1595
▁relief	-1596
▁threat	-1597
estigate	-1598
liminate	-1599
▁conduct	-1600
▁connect	-1601
▁outcome	-1602
▁passage	-1603
▁suspect	-1604
▁pressure	-1605
▁resident	-1606
▁construct	-1607
▁interrupt	-1608
▁particular	-1609
▁profession	-1610
au	-1611
yn	-1612
arn	-1613
ally	-1614
amic	-1615
auty	-1616
imit	-1617
ndle	-1618
tact	-1619
ural	-1620
anger	-1621
ually	-1622
ximum	-1623
▁keen	-1624
alance	-1625
ynamic	-1626
▁birth	-1627
▁bring	-1628
▁layer	-1629
▁range	-1630
▁wides	-1631
vantage	-1632
▁battle	-1633
▁handle	-1634
▁record	-1635
angerous	-1636
▁ceiling	-1637
▁closely	-1638
▁culture	-1639
▁diverse	-1640
▁intense	-1641
▁library	-1642
▁possess	-1643
▁present	-1644
▁replace	-1645
▁emphasis	-1646
▁overcome	-1647
▁strength	-1648
▁interview	-1649
▁reinforce	-1650
▁widespread	-1651
ho	-1652
ift	-1653
iso	-1654
mun	-1655
pic	-1656
oyal	-1657
pair	-1658
piso	-1659
play	-1660
▁cal	-1661
▁few	-1662
agine	-1663
ather	-1664
lieve	-1665
ndard	-1666
ourse	-1667
rowth	-1668
uture	-1669
venue	-1670
▁risk	-1671
ground	-1672
munity	-1673
pisode	-1674
▁claim	-1675
▁fault	-1676
▁large	-1677
▁query	-1678
▁topic	-1679
erstand	-1680
ominent	-1681
rameter	-1682
▁detect	-1683
▁doctor	-1684
▁refuse	-1685
▁settle	-1686
▁chapter	-1687
▁discuss	-1688
▁general	-1689
▁imagine	-1690
▁require	-1691
▁typical	-1692
▁calendar	-1693
▁category	-1694
▁critical	-1695
▁standard	-1696
▁procedure	-1697
▁environment	-1698
▁participate	-1699
▁circumstance	-1700
ps	-1701
ert	-1702
rge	-1703
rol	-1704
tus	-1705
ula	-1706
utu	-1707
avor	-1708
eral	-1709
haps	-1710
hild	-1711
irty	-1712
ogic	-1713
tern	-1714
tify	-1715
tine	-1716
udge	-1717
zard	-1718
▁pat	-1719
▁pri	-1720
ggest	-1721
ictim	-1722
never	-1723
onest	-1724
ounce	-1725
utual	-1726
▁pace	-1727
ercise	-1728
▁issue	-1729
▁least	-1730
▁track	-1731
▁manage	-1732
▁motion	-1733
▁attempt	-1734
▁citizen	-1735
▁context	-1736
▁exhibit	-1737
▁express	-1738
▁insight	-1739
▁medical	-1740
▁monitor	-1741
▁notable	-1742
▁overlap	-1743
▁pattern	-1744
▁predict	-1745
▁unknown	-1746
oundation	-1747
▁distance	-1748
▁enormous	-1749
▁priority	-1750
▁democracy	-1751
▁introduce	-1752
▁knowledge	-1753
▁confidence	-1754
▁consequence	-1755
▁opportunity	-1756
ego	-1757
isl	-1758
til	-1759
vey	-1760
ared	-1761
enon	-1762
irpl	-1763
lean	-1764
llig	-1765
mong	-1766
rant	-1767
ware	-1768
egoti	-1769
henom	-1770
ineer	-1771
trast	-1772
▁full	-1773
▁gate	-1774
▁same	-1775
▁carry	-1776
▁cause	-1777
▁depth	-1778
▁frame	-1779
▁urban	-1780
▁valid	-1781
▁vital	-1782
irplane	-1783
present	-1784
▁artist	-1785
▁effort	-1786
▁expand	-1787
egotiate	-1788
islation	-1789
lligence	-1790
novation	-1791
▁confirm	-1792
▁consult	-1793
▁emotion	-1794
▁journey	-1795
▁kitchen	-1796
▁morning	-1797
▁network	-1798
▁primary	-1799
▁section	-1800
▁summary	-1801
henomenon	-1802
▁compared	-1803
▁evidence	-1804
▁grateful	-1805
▁position	-1806
▁quantity	-1807
▁schedule	-1808
▁somewhat	-1809
▁establish	-1810
▁realistic	-1811
▁transition	-1812
oo	-1813
avy	-1814
iry	-1815
nel	-1816
ario	-1817
cite	-1818
face	-1819
iate	-1820
ooth	-1821
▁any	-1822
acant	-1823
anent	-1824
ctual	-1825
egree	-1826
quiry	-1827
riend	-1828
undam	-1829
▁rare	-1830
ailure	-1831
enario	-1832
priate	-1833
racter	-1834
rument	-1835
▁chain	-1836
▁grade	-1837
▁minor	-1838
▁scale	-1839
oundary	-1840
▁beside	-1841
▁credit	-1842
▁impose	-1843
▁larger	-1844
▁option	-1845
▁social	-1846
▁vision	-1847
▁window	-1848
▁absence	-1849
▁content	-1850
▁deliver	-1851
▁invoice	-1852
▁opinion	-1853
▁project	-1854
▁sustain	-1855
▁heritage	-1856
▁industry	-1857
▁occasion	-1858
▁ordinary	-1859
▁prospect	-1860
▁relative	-1861
undamental	-1862
▁intervene	-1863
▁reasonable	-1864
Se	-1865
ata	-1866
icy	-1867
ily	-1868
efit	-1869
more	-1870
ophy	-1871
ream	-1872
ront	-1873
▁har	-1874
▁imm	-1875
hilos	-1876
imply	-1877
trict	-1878
▁hint	-1879
▁sale	-1880
cienti	-1881
enefit	-1882
icycle	-1883
irtual	-1884
oliday	-1885
▁essay	-1886
▁human	-1887
▁imply	-1888
▁while	-1889
▁change	-1890
▁enough	-1891
▁except	-1892
▁expose	-1893
▁permit	-1894
▁resort	-1895
cientist	-1896
▁concept	-1897
▁harvest	-1898
▁measure	-1899
▁propose	-1900
hilosophy	-1901
▁conserve	-1902
▁election	-1903
▁external	-1904
▁generate	-1905
▁musician	-1906
▁restrict	-1907
▁immediate	-1908
▁interpret	-1909
▁necessary	-1910
▁situation	-1911
▁substance	-1912
▁experience	-1913
▁proportional	-1914
ait	-1915
atu	-1916
eer	-1917
ild	-1918
jec	-1919
ope	-1920
sel	-1921
tee	-1922
top	-1923
aran	-1924
most	-1925
omes	-1926
ulty	-1927
vive	-1928
essel	-1929
eting	-1930
oment	-1931
order	-1932
ortly	-1933
veral	-1934
▁door	-1935
▁seek	-1936
aculty	-1937
atural	-1938
ccount	-1939
cility	-1940
endent	-1941
illing	-1942
ioneer	-1943
ission	-1944
thlete	-1945
▁enjoy	-1946
▁fresh	-1947
▁guess	-1948
▁offer	-1949
▁table	-1950
arantee	-1951
jective	-1952
omestic	-1953
▁behave	-1954
▁enable	-1955
▁format	-1956
▁method	-1957
▁anxious	-1958
▁comment	-1959
▁enforce	-1960
▁example	-1961
▁several	-1962
▁unequal	-1963
▁utilize	-1964
▁whether	-1965
▁economic	-1966
▁stimulate	-1967
ask	-1968
lel	-1969
ole	-1970
ated	-1971
dual	-1972
very	-1973
vior	-1974
▁all	-1975
▁est	-1976
▁ill	-1977
allel	-1978
igure	-1979
ister	-1980
pport	-1981
ulner	-1982
▁firm	-1983
quency	-1984
▁early	-1985
▁field	-1986
▁inner	-1987
▁limit	-1988
▁stage	-1989
▁worry	-1990
▁accept	-1991
▁create	-1992
▁crisis	-1993
▁estate	-1994
▁indeed	-1995
▁obtain	-1996
▁origin	-1997
▁return	-1998
▁season	-1999
▁secure	-2000
▁slight	-2001
onstrate	-2002
▁ability	-2003
▁counter	-2004
▁minimum	-2005
▁partial	-2006
▁produce	-2007
▁publish	-2008
▁release	-2009
▁suppose	-2010
▁village	-2011
ulnerable	-2012
▁identify	-2013
▁interact	-2014
▁movement	-2015
▁presence	-2016
▁illustrate	-2017
▁technology	-2018
▁significant	-2019
ee	-2020
iz	-2021
ash	-2022
duc	-2023
ial	-2024
urs	-2025
dden	-2026
izon	-2027
rial	-2028
▁ign	-2029
▁who	-2030
cceed	-2031
eries	-2032
grade	-2033
hoose	-2034
ursue	-2035
verse	-2036
▁area	-2037
▁ulti	-2038
ashion	-2039
ducate	-2040
orizon	-2041
terial	-2042
tivate	-2043
▁equip	-2044
▁floor	-2045
▁labor	-2046
▁local	-2047
▁order	-2048
▁rural	-2049
mendous	-2050
▁adjust	-2051
▁amount	-2052
▁couple	-2053
▁garden	-2054
▁ignore	-2055
▁impact	-2056
▁parent	-2057
▁prompt	-2058
▁region	-2059
▁advance	-2060
▁besides	-2061
▁classic	-2062
▁distant	-2063
▁exclude	-2064
▁roughly	-2065
▁variety	-2066
▁announce	-2067
▁relevant	-2068
▁response	-2069
▁ultimate	-2070
▁integrate	-2071
go	-2072
flu	-2073
lay	-2074
roc	-2075
sic	-2076
rust	-2077
vote	-2078
ysis	-2079
▁but	-2080
▁why	-2081
useum	-2082
▁each	-2083
coming	-2084
ficial	-2085
rocery	-2086
▁basic	-2087
▁delay	-2088
▁event	-2089
▁fewer	-2090
▁input	-2091
▁major	-2092
▁recom	-2093
fluence	-2094
ructure	-2095
▁bright	-2096
▁defeat	-2097
▁extent	-2098
▁finish	-2099
▁injury	-2100
▁listen	-2101
▁nature	-2102
▁normal	-2103
▁revise	-2104
ervation	-2105
▁already	-2106
▁balance	-2107
▁climate	-2108
▁command	-2109
▁compete	-2110
▁contact	-2111
▁examine	-2112
▁factory	-2113
▁fortune	-2114
▁observe	-2115
▁perform	-2116
▁product	-2117
▁reflect	-2118
▁uniform	-2119
▁deadline	-2120
▁official	-2121
▁perceive	-2122
▁ambiguous	-2123
▁available	-2124
▁provision	-2125
▁recommend	-2126
▁tradition	-2127
▁transport	-2128
▁discipline	-2129
▁eventually	-2130
▁furthermore	-2131
▁manufacture	-2132
An	-2133
ior	-2134
rely	-2135
▁lic	-2136
berty	-2137
ctrum	-2138
rient	-2139
rival	-2140
utral	-2141
velop	-2142
▁boat	-2143
▁cold	-2144
▁debt	-2145
▁fram	-2146
▁link	-2147
iolate	-2148
isease	-2149
▁dirty	-2150
▁doubt	-2151
▁error	-2152
▁refer	-2153
▁route	-2154
▁appear	-2155
▁author	-2156
▁barely	-2157
▁become	-2158
▁belief	-2159
▁charge	-2160
▁direct	-2161
▁matter	-2162
▁member	-2163
▁resist	-2164
▁retain	-2165
▁reveal	-2166
▁shrink	-2167
▁symbol	-2168
▁visual	-2169
▁wealth	-2170
andscape	-2171
▁address	-2172
▁consume	-2173
▁correct	-2174
▁episode	-2175
▁extreme	-2176
▁genuine	-2177
▁improve	-2178
▁include	-2179
▁license	-2180
▁maximum	-2181
▁profile	-2182
▁receipt	-2183
▁success	-2184
▁activity	-2185
▁disagree	-2186
▁language	-2187
▁spectrum	-2188
▁surround	-2189
▁thorough	-2190
▁unlikely	-2191
▁dangerous	-2192
▁framework	-2193
▁household	-2194
▁temporary	-2195
▁understand	-2196
py	-2197
dra	-2198
ich	-2199
ism	-2200
nte	-2201
ont	-2202
upy	-2203
arby	-2204
draw	-2205
lier	-2206
echan	-2207
ivate	-2208
nteer	-2209
▁none	-2210
▁warn	-2211
▁brief	-2212
▁civil	-2213
▁front	-2214
▁logic	-2215
▁react	-2216
▁shift	-2217
▁since	-2218
▁vague	-2219
▁which	-2220
▁attend	-2221
▁decide	-2222
▁detail	-2223
▁editor	-2224
▁farmer	-2225
▁intend	-2226
▁invest	-2227
▁margin	-2228
▁nearby	-2229
▁notice	-2230
▁repair	-2231
▁status	-2232
▁stress	-2233
echanism	-2234
▁believe	-2235
▁careful	-2236
▁complex	-2237
▁display	-2238
▁element	-2239
▁explore	-2240
▁private	-2241
▁quality	-2242
▁satisfy	-2243
▁attitude	-2244
▁employer	-2245
▁exercise	-2246
▁increase	-2247
▁straight	-2248
▁subtract	-2249
▁wherever	-2250
▁advantage	-2251
▁disappear	-2252
▁interfere	-2253
▁parameter	-2254
▁practical	-2255
▁undertake	-2256
Pre	-2257
dom	-2258
ong	-2259
see	-2260
son	-2261
Cons	-2262
gent	-2263
ggle	-2264
inct	-2265
cient	-2266
isdom	-2267
▁perm	-2268
▁wall	-2269
▁wide	-2270
reason	-2271
ruggle	-2272
vening	-2273
▁apply	-2274
▁begin	-2275
▁check	-2276
▁clean	-2277
▁crowd	-2278
▁light	-2279
▁solid	-2280
▁circle	-2281
▁desire	-2282
▁excite	-2283
▁formal	-2284
▁hidden	-2285
▁profit	-2286
▁signal	-2287
▁strict	-2288
▁bicycle	-2289
▁capital	-2290
▁company	-2291
▁initial	-2292
▁oversee	-2293
▁savings	-2294
▁airplane	-2295
▁conflict	-2296
▁dramatic	-2297
▁indicate	-2298
reasonable	-2299
▁attention	-2300
▁community	-2301
▁institute	-2302
▁permanent	-2303
▁technique	-2304
▁obligation	-2305
▁phenomenon	-2306
lic	-2307
arch	-2308
areh	-2309
cess	-2310
ergy	-2311
ways	-2312
ember	-2313
olume	-2314
▁deal	-2315
▁goal	-2316
▁rese	-2317
▁site	-2318
▁stop	-2319
▁whom	-2320
▁extra	-2321
▁favor	-2322
▁actual	-2323
▁afford	-2324
▁assist	-2325
▁course	-2326
▁energy	-2327
▁friend	-2328
▁gender	-2329
▁manner	-2330
▁recall	-2331
▁sample	-2332
▁select	-2333
arehouse	-2334
ighlight	-2335
▁courage	-2336
▁faculty	-2337
▁pioneer	-2338
▁process	-2339
▁protest	-2340
▁session	-2341
▁suggest	-2342
▁survive	-2343
▁virtual	-2344
▁criteria	-2345
▁engineer	-2346
▁identity	-2347
▁moreover	-2348
▁practice	-2349
▁research	-2350
▁efficient	-2351
▁negotiate	-2352
▁precisely	-2353
▁impossible	-2354
▁preference	-2355
▁approximately	-2356
new	-2357
kill	-2358
cause	-2359
ckage	-2360
erive	-2361
ystem	-2362
▁core	-2363
▁road	-2364
▁some	-2365
▁weak	-2366
itable	-2367
ortion	-2368
▁dream	-2369
▁enter	-2370
▁image	-2371
▁renew	-2372
▁story	-2373
▁trial	-2374
▁yield	-2375
▁commit	-2376
▁defend	-2377
▁define	-2378
▁device	-2379
▁hazard	-2380
▁honest	-2381
▁notion	-2382
▁output	-2383
▁reject	-2384
▁stable	-2385
▁survey	-2386
▁account	-2387
▁because	-2388
▁control	-2389
▁develop	-2390
▁install	-2391
▁outline	-2392
▁readily	-2393
▁surface	-2394
▁tension	-2395
▁minority	-2396
▁parallel	-2397
▁positive	-2398
▁tendency	-2399
▁authority	-2400
▁eliminate	-2401
▁important	-2402
▁prominent	-2403
▁technical	-2404
▁contribute	-2405
▁foundation	-2406
▁frequently	-2407
▁innovation	-2408
▁instrument	-2409
▁fundamental	-2410
▁intelligence	-2411
lf	-2412
cer	-2413
itn	-2414
cern	-2415
each	-2416
helf	-2417
xpec	-2418
▁rig	-2419
cific	-2420
overn	-2421
▁city	-2422
▁wait	-2423
eacher	-2424
ederal	-2425
itness	-2426
▁allow	-2427
▁among	-2428
▁chair	-2429
▁judge	-2430
▁media	-2431
▁moral	-2432
▁reach	-2433
▁rigid	-2434
▁scope	-2435
xpected	-2436
▁almost	-2437
▁annual	-2438
▁growth	-2439
▁inform	-2440
▁likely	-2441
▁mutual	-2442
▁regard	-2443
▁senior	-2444
▁unless	-2445
▁victim	-2446
▁within	-2447
▁dynamic	-2448
▁greater	-2449
▁horizon	-2450
▁mission	-2451
▁respect	-2452
▁whereas	-2453
▁behavior	-2454
▁customer	-2455
▁employee	-2456
▁instruct	-2457
▁specific	-2458
▁nutrition	-2459
▁transform	-2460
▁literature	-2461
▁investigate	-2462
▁legislation	-2463
bile	-2464
tale	-2465
▁then	-2466
▁when	-2467
▁chart	-2468
▁child	-2469
▁loyal	-2470
▁assume	-2471
▁choose	-2472
▁degree	-2473
▁depend	-2474
▁nation	-2475
▁series	-2476
▁smooth	-2477
▁submit	-2478
▁writer	-2479
▁exactly	-2480
▁inquiry	-2481
▁manager	-2482
▁quarter	-2483
▁revenue	-2484
▁shortly	-2485
▁boundary	-2486
▁literary	-2487
▁motivate	-2488
▁traveler	-2489
▁whenever	-2490
▁guarantee	-2491
▁meanwhile	-2492
▁mechanism	-2493
▁potential	-2494
▁scientist	-2495
▁variation	-2496
▁background	-2497
▁conference	-2498
▁generation	-2499
pon	-2500
bate	-2501
rite	-2502
ting	-2503
▁tol	-2504
isure	-2505
▁cost	-2506
▁task	-2507
▁vast	-2508
ponent	-2509
▁cover	-2510
▁fence	-2511
▁treat	-2512
▁until	-2513
trategy	-2514
▁advice	-2515
▁beauty	-2516
▁chance	-2517
▁common	-2518
▁extend	-2519
▁memory	-2520
▁remark	-2521
▁scheme	-2522
▁spread	-2523
▁vacant	-2524
▁benefit	-2525
▁certain	-2526
▁formula	-2527
▁justify	-2528
▁natural	-2529
▁obvious	-2530
▁shallow	-2531
▁undergo	-2532
▁tolerate	-2533
▁character	-2534
▁frequency	-2535
▁objective	-2536
▁transaction	-2537
sp	-2538
▁rely	-2539
▁role	-2540
▁every	-2541
▁faith	-2542
▁heavy	-2543
▁night	-2544
▁prove	-2545
▁quote	-2546
▁speak	-2547
▁agency	-2548
▁animal	-2549
▁depart	-2550
▁future	-2551
▁locate	-2552
▁occupy	-2553
▁recent	-2554
▁reform	-2555
▁source	-2556
▁acquire	-2557
▁college	-2558
▁country	-2559
▁feature	-2560
▁gradual	-2561
▁justice	-2562
▁mention	-2563
▁resolve	-2564
▁restore	-2565
▁conclude	-2566
▁internal	-2567
▁material	-2568
▁previous	-2569
▁scenario	-2570
▁influence	-2571
▁represent	-2572
▁voluntary	-2573
▁observation	-2574
ither	-2575
learn	-2576
▁main	-2577
▁term	-2578
▁aware	-2579
▁curve	-2580
▁grant	-2581
▁learn	-2582
▁merge	-2583
▁occur	-2584
▁border	-2585
▁factor	-2586
▁native	-2587
▁remind	-2588
▁sudden	-2589
▁urgent	-2590
▁vessel	-2591
▁educate	-2592
▁fashion	-2593
▁perhaps	-2594
▁purpose	-2595
▁reality	-2596
▁related	-2597
▁routine	-2598
▁violate	-2599
▁contrast	-2600
▁district	-2601
▁maintain	-2602
▁province	-2603
▁regulate	-2604
▁transfer	-2605
▁condition	-2606
▁initiative	-2607
▁philosophy	-2608
rong	-2609
ollow	-2610
▁data	-2611
▁plan	-2612
posite	-2613
▁below	-2614
▁focus	-2615
▁guard	-2616
▁price	-2617
▁trust	-2618
▁access	-2619
▁ensure	-2620
▁header	-2621
▁moment	-2622
▁orange	-2623
▁remote	-2624
▁current	-2625
▁earlier	-2626
▁enhance	-2627
▁failure	-2628
▁holiday	-2629
▁neutral	-2630
▁qualify	-2631
▁support	-2632
▁weekend	-2633
▁witness	-2634
▁flexible	-2635
▁preserve	-2636
▁remember	-2637
▁struggle	-2638
▁landscape	-2639
▁structure	-2640
▁tremendous	-2641
Ar	-2642
gue	-2643
tio	-2644
ugh	-2645
noon	-2646
tner	-2647
▁ent	-2648
▁year	-2649
▁exist	-2650
▁indep	-2651
▁ratio	-2652
▁sense	-2653
▁shelf	-2654
▁tough	-2655
▁double	-2656
▁expert	-2657
▁public	-2658
▁pursue	-2659
▁render	-2660
▁verify	-2661
▁volume	-2662
▁disease	-2663
▁federal	-2664
▁inspect	-2665
▁liberty	-2666
▁mixture	-2667
▁partner	-2668
▁prevent	-2669
▁proceed	-2670
▁succeed	-2671
▁willing	-2672
▁domestic	-2673
▁entrance	-2674
▁multiply	-2675
▁progress	-2676
▁register	-2677
▁colleague	-2678
▁independent	-2679
Cl	-2680
Li	-2681
▁i	-2682
Dist	-2683
date	-2684
▁anal	-2685
▁item	-2686
egment	-2687
▁build	-2688
▁orbit	-2689
▁affect	-2690
▁aspect	-2691
▁expect	-2692
▁figure	-2693
▁narrow	-2694
▁toward	-2695
▁athlete	-2696
▁central	-2697
▁meeting	-2698
▁thought	-2699
▁analysis	-2700
▁facility	-2701
▁highlight	-2702
▁warehouse	-2703
▁vulnerable	-2704
▁demonstrate	-2705
fice	-2706
Trans	-2707
▁edge	-2708
▁broad	-2709
▁guide	-2710
▁skill	-2711
▁store	-2712
▁career	-2713
▁devote	-2714
▁govern	-2715
▁league	-2716
▁concern	-2717
▁grocery	-2718
▁promote	-2719
▁contract	-2720
▁withdraw	-2721
▁uncertain	-2722
▁appropriate	-2723
At	-2724
Reg	-2725
rel	-2726
vite	-2727
▁less	-2728
▁river	-2729
related	-2730
▁always	-2731
▁derive	-2732
▁forward	-2733
▁instant	-2734
▁protect	-2735
▁reverse	-2736
▁teacher	-2737
▁upgrade	-2738
▁director	-2739
▁distinct	-2740
▁statement	-2741
Me	-2742
▁coach	-2743
▁mobile	-2744
▁museum	-2745
▁rather	-2746
▁supply	-2747
▁arrival	-2748
▁channel	-2749
▁leisure	-2750
▁passion	-2751
▁realize	-2752
▁opposite	-2753
▁suitable	-2754
▁unexpected	-2755
Ap	-2756
Per	-2757
ket	-2758
ndom	-2759
▁grasp	-2760
▁start	-2761
▁trace	-2762
▁usage	-2763
▁whose	-2764
▁either	-2765
▁market	-2766
▁random	-2767
▁strong	-2768
▁update	-2769
▁ancient	-2770
▁various	-2771
▁approach	-2772
▁upcoming	-2773
long	-2774
▁deny	-2775
▁stale	-2776
plement	-2777
▁belong	-2778
▁gather	-2779
▁orient	-2780
▁wisdom	-2781
▁portion	-2782
▁confront	-2783
▁consistent	-2784
▁debate	-2785
▁demand	-2786
▁report	-2787
▁simple	-2788
▁evening	-2789
▁however	-2790
▁journal	-2791
▁volunteer	-2792
idual	-2793
▁object	-2794
▁system	-2795
▁theory	-2796
▁provide	-2797
▁opponent	-2798
▁strategy	-2799
▁essential	-2800
▁unreasonable	-2801
Tra	-2802
▁write	-2803
▁invite	-2804
▁package	-2805
▁agreement	-2806
Ad	-2807
Des	-2808
▁alone	-2809
▁version	-2810
▁afternoon	-2811
▁segment	-2812
Cha	-2813
▁engage	-2814
▁follow	-2815
▁office	-2816
▁capable	-2817
▁overall	-2818
▁constant	-2819
▁argue	-2820
Rel	-2821
▁setting	-2822
▁unrelated	-2823
▁implement	-2824
Ind	-2825
Man	-2826
▁indiv	-2827
▁individual	-2828
Ac	-2829
Al	-2830
Sim	-2831
Col	-2832
Ins	-2833
ss	-2834
Rem	-2835
Cont	-2836
Le	-2837
Dis	-2838
Disc	-2839
Appro	-2840
Ext	-2841
Pur	-2842
Inst	-2843
Prov	-2844
Inv	-2845
Dec	-2846
Ag	-2847
Dep	-2848
Ne	-2849
Fre	-2850
Real	-2851
Liter	-2852
Emp	-2853
Sur	-2854
Coun	-2855
Where	-2856
Pa	-2857
Rec	-2858
Cap	-2859
Expl	-2860
Ab	-2861
Int	-2862
Par	-2863
Sha	-2864
Sm	-2865
Leg	-2866
Resp	-2867
Techn	-2868
ehicle	-2869
Af	-2870
Wor	-2871
Fa	-2872
Ma	-2873
Sc	-2874
Min	-2875
Dif	-2876
Ear	-2877
Cent	-2878
Contain	-2879
Rou	-2880
ender	-2881
Proper	-2882
Similar	-2883
Id	-2884
Sh	-2885
ome	-2886
Conf	-2887
Close	-2888
Employ	-2889
Identi	-2890
Frequent	-2891
Therefore	-2892
Am	-2893
Ef	-2894
Def	-2895
Fin	-2896
Prog	-2897
Agree	-2898
Comple	-2899
Do	-2900
Dra	-2901
For	-2902
Fact	-2903
Custom	-2904
Compare	-2905
Discover	-2906
Ass	-2907
Sup	-2908
Comb	-2909
Form	-2910
Inte	-2911
Jour	-2912
Pause	-2913
Decade	-2914
Collect	-2915
Combine	-2916
Interval	-2917
Purchase	-2918
Cir	-2919
Pos	-2920
Set	-2921
Tre	-2922
Care	-2923
Week	-2924
Const	-2925
Initi	-2926
Century	-2927
Explain	-2928
Summary	-2929
Potential	-2930
No	-2931
nc	-2932
Jus	-2933
Colle	-2934
Design	-2935
Steady	-2936
Though	-2937
Expense	-2938
Exchange	-2939
Function	-2940
He	-2941
Div	-2942
Ess	-2943
Imp	-2944
Nar	-2945
Whe	-2946
More	-2947
Prac	-2948
Sche	-2949
Rough	-2950
Divide	-2951
Precise	-2952
Consider	-2953
Add	-2954
Dou	-2955
Sus	-2956
Farm	-2957
Class	-2958
Early	-2959
Empty	-2960
Small	-2961
Provide	-2962
Nutrition	-2963
Ev	-2964
Ha	-2965
Cur	-2966
Del	-2967
Ele	-2968
Mor	-2969
Sign	-2970
Delay	-2971
Focus	-2972
Worth	-2973
Econom	-2974
Reader	-2975
Review	-2976
Arrange	-2977
Literary	-2978
Reliable	-2979
Proportion	-2980
Ann	-2981
Att	-2982
Dem	-2983
Equ	-2984
Pub	-2985
Equi	-2986
Equal	-2987
Sever	-2988
Method	-2989
Return	-2990
arious	-2991
Exclude	-2992
Instead	-2993
Prepare	-2994
Several	-2995
Flexible	-2996
Sequence	-2997
Wh	-2998
bs	-2999
Eng	-3000
eha	-3001
Chan	-3002
Pres	-3003
Prof	-3004
uard	-3005
uiet	-3006
Income	-3007
Channel	-3008
Consist	-3009
Describe	-3010
Familiar	-3011
Regulate	-3012
Sufficient	-3013
Ill	-3014
Loc	-3015
Area	-3016
Read	-3017
With	-3018
Allow	-3019
Parti	-3020
React	-3021
udget	-3022
Result	-3023
Resolve	-3024
Section	-3025
Complete	-3026
Response	-3027
oluntary	-3028
Interpret	-3029
Illustrate	-3030
Inc	-3031
Deep	-3032
Fram	-3033
Count	-3034
State	-3035
Theme	-3036
Desire	-3037
Effort	-3038
Expert	-3039
Factor	-3040
Finish	-3041
Import	-3042
Repeat	-3043
Discuss	-3044
Continue	-3045
Separate	-3046
Framework	-3047
Meanwhile	-3048
Necessary	-3049
Principle	-3050
Initiative	-3051
Appropriate	-3052
Transaction	-3053
Har	-3054
Mon	-3055
Dire	-3056
Lear	-3057
Most	-3058
Near	-3059
Rele	-3060
Sale	-3061
Learn	-3062
Device	-3063
Intend	-3064
Nearby	-3065
Sample	-3066
Travel	-3067
Acquire	-3068
Attract	-3069
Enforce	-3070
Harvest	-3071
Setting	-3072
enerate	-3073
Although	-3074
Dramatic	-3075
Container	-3076
Difference	-3077
Literature	-3078
Approximately	-3079
Fe	-3080
Mo	-3081
Hes	-3082
Mod	-3083
Ref	-3084
Sec	-3085
Ener	-3086
Prom	-3087
rief	-3088
Exact	-3089
Floor	-3090
Prove	-3091
Table	-3092
earch	-3093
eauty	-3094
Energy	-3095
Escape	-3096
Future	-3097
Injury	-3098
Larger	-3099
Nation	-3100
Reason	-3101
Secure	-3102
Strict	-3103
Wealth	-3104
Window	-3105
Writer	-3106
etween	-3107
Crucial	-3108
Extreme	-3109
Forever	-3110
Insight	-3111
Manager	-3112
Medical	-3113
Perhaps	-3114
Propose	-3115
Purpose	-3116
Realize	-3117
Related	-3118
Respect	-3119
Routine	-3120
Thought	-3121
pcoming	-3122
rganize	-3123
Heritage	-3124
Hesitate	-3125
Identity	-3126
Moreover	-3127
Negative	-3128
Possible	-3129
Previous	-3130
Research	-3131
olunteer	-3132
Ambiguous	-3133
Integrate	-3134
Intervene	-3135
Distribute	-3136
Impossible	-3137
Consequence	-3138
nreasonable	-3139
Is	-3140
Doc	-3141
Fra	-3142
Rap	-3143
Red	-3144
Sen	-3145
Tol	-3146
uce	-3147
Auth	-3148
Cold	-3149
Hand	-3150
Pace	-3151
Peri	-3152
Prop	-3153
Same	-3154
asic	-3155
elow	-3156
osal	-3157
uild	-3158
Aware	-3159
Civil	-3160
Docum	-3161
Enjoy	-3162
Frame	-3163
Level	-3164
Merge	-3165
Rapid	-3166
ecome	-3167
nique	-3168
Annual	-3169
County	-3170
Doctor	-3171
Driver	-3172
Expand	-3173
Handle	-3174
Hidden	-3175
Manage	-3176
Museum	-3177
Period	-3178
Reduce	-3179
Reject	-3180
Remark	-3181
Render	-3182
Salary	-3183
Symbol	-3184
ecause	-3185
pgrade	-3186
pinion	-3187
Athlete	-3188
Diverse	-3189
Evening	-3190
Failure	-3191
Involve	-3192
Journal	-3193
Meeting	-3194
Package	-3195
Percent	-3196
Respond	-3197
Savings	-3198
Student	-3199
Weekend	-3200
Conserve	-3201
Constant	-3202
Contrast	-3203
Criteria	-3204
Distance	-3205
Document	-3206
Election	-3207
Emphasis	-3208
Facility	-3209
Progress	-3210
Proposal	-3211
Tendency	-3212
Tolerate	-3213
Transfer	-3214
Insurance	-3215
Procedure	-3216
Investigate	-3217
Proportional	-3218
Ima	-3219
ack	-3220
nit	-3221
Data	-3222
Imag	-3223
Priv	-3224
Proc	-3225
Pros	-3226
Rare	-3227
Rise	-3228
Risk	-3229
Some	-3230
Wage	-3231
alue	-3232
Carry	-3233
Chain	-3234
Enter	-3235
Essay	-3236
Indep	-3237
Loyal	-3238
Phase	-3239
River	-3240
Route	-3241
Share	-3242
Since	-3243
Trend	-3244
elong	-3245
erify	-3246
eyond	-3247
ppose	-3248
Aspect	-3249
Decide	-3250
Depart	-3251
Entire	-3252
Expose	-3253
Figure	-3254
Insist	-3255
Invest	-3256
Nature	-3257
Notion	-3258
Permit	-3259
Remove	-3260
Signal	-3261
Sphere	-3262
Supply	-3263
System	-3264
Wisdom	-3265
ersion	-3266
uality	-3267
Arrival	-3268
Capable	-3269
Closely	-3270
Conduct	-3271
Context	-3272
Distant	-3273
Dynamic	-3274
Emotion	-3275
Formula	-3276
Further	-3277
Holiday	-3278
Imagine	-3279
Improve	-3280
Include	-3281
Justify	-3282
Measure	-3283
Notable	-3284
Possess	-3285
Private	-3286
Process	-3287
Protest	-3288
Revenue	-3289
Smaller	-3290
Tension	-3291
Willing	-3292
ccasion	-3293
nlikely	-3294
Activity	-3295
Conflict	-3296
Critical	-3297
District	-3298
Domestic	-3299
Economic	-3300
Position	-3301
Prospect	-3302
Colleague	-3303
Different	-3304
Eliminate	-3305
Household	-3306
Practical	-3307
Represent	-3308
Transform	-3309
ackground	-3310
bligation	-3311
Leadership	-3312
Subsequent	-3313
Demonstrate	-3314
Independent	-3315
If	-3316
Il	-3317
Den	-3318
Lic	-3319
Rew	-3320
Top	-3321
Wel	-3322
Deny	-3323
Firm	-3324
Full	-3325
Link	-3326
Pare	-3327
Pers	-3328
Road	-3329
Whom	-3330
ener	-3331
ntil	-3332
rder	-3333
uess	-3334
Above	-3335
Child	-3336
Front	-3337
Heavy	-3338
Major	-3339
Range	-3340
Topic	-3341
Wides	-3342
arely	-3343
ption	-3344
Action	-3345
Afford	-3346
Assist	-3347
Assume	-3348
Chance	-3349
Circle	-3350
Couple	-3351
Credit	-3352
Depend	-3353
Devote	-3354
Editor	-3355
Extend	-3356
Extent	-3357
Mental	-3358
Moment	-3359
Parent	-3360
Patter	-3361
Report	-3362
Reveal	-3363
Revise	-3364
Reward	-3365
Scheme	-3366
Slight	-3367
Spread	-3368
nequal	-3369
Ability	-3370
Achieve	-3371
Ancient	-3372
Careful	-3373
Deliver	-3374
Examine	-3375
Illegal	-3376
License	-3377
Pattern	-3378
Prevent	-3379
Program	-3380
Project	-3381
Publish	-3382
Regular	-3383
Require	-3384
Roughly	-3385
Welfare	-3386
fficial	-3387
rdinary	-3388
Conclude	-3389
Disagree	-3390
Enormous	-3391
Identify	-3392
Instruct	-3393
Property	-3394
Register	-3395
Scenario	-3396
Straight	-3397
Thorough	-3398
Whatever	-3399
Whenever	-3400
ndertake	-3401
Institute	-3402
Interfere	-3403
Provision	-3404
Technical	-3405
Temporary	-3406
eneration	-3407
Consistent	-3408
Frequently	-3409
Philosophy	-3410
Technology	-3411
Widespread	-3412
Perspective	-3413
Any	-3414
Ent	-3415
Imm	-3416
Rig	-3417
Anal	-3418
Comp	-3419
Door	-3420
Each	-3421
None	-3422
Rand	-3423
Term	-3424
When	-3425
Whic	-3426
rban	-3427
uery	-3428
uide	-3429
uote	-3430
Argue	-3431
Chair	-3432
Clear	-3433
Cover	-3434
Crowd	-3435
Depth	-3436
Doubt	-3437
Exist	-3438
Extra	-3439
Float	-3440
Human	-3441
Judge	-3442
Media	-3443
Minor	-3444
Panel	-3445
Refer	-3446
Rigid	-3447
Trace	-3448
Train	-3449
Which	-3450
Write	-3451
ehave	-3452
eside	-3453
uanti	-3454
Access	-3455
Amount	-3456
Arrive	-3457
Career	-3458
Create	-3459
Crisis	-3460
Detail	-3461
Follow	-3462
Former	-3463
Impose	-3464
Manner	-3465
Matter	-3466
Modest	-3467
Motion	-3468
Mutual	-3469
Narrow	-3470
Normal	-3471
Profit	-3472
Pursue	-3473
Random	-3474
Rather	-3475
Reform	-3476
Region	-3477
Resort	-3478
Resume	-3479
Season	-3480
Threat	-3481
eneral	-3482
esides	-3483
nclear	-3484
utcome	-3485
verlap	-3486
Anxious	-3487
Company	-3488
Compete	-3489
Concept	-3490
Council	-3491
Current	-3492
Inspect	-3493
Instant	-3494
Kitchen	-3495
Mention	-3496
Payment	-3497
Portion	-3498
Reality	-3499
Receive	-3500
Reverse	-3501
Succeed	-3502
Support	-3503
Suppose	-3504
Suspect	-3505
Whereas	-3506
uantity	-3507
Analysis	-3508
Capacity	-3509
Category	-3510
Deadline	-3511
Dominant	-3512
Entrance	-3513
Indicate	-3514
Interact	-3515
Neighbor	-3516
Pressure	-3517
Wherever	-3518
ncertain	-3519
Agreement	-3520
Available	-3521
Character	-3522
Disappear	-3523
Encourage	-3524
Excellent	-3525
Immediate	-3526
Interview	-3527
Prominent	-3528
Transport	-3529
Experience	-3530
Manufacture	-3531
Circumstance	-3532
Insufficient	-3533
Co	-3534
Few	-3535
Ren	-3536
Som	-3537
Why	-3538
uar	-3539
Deal	-3540
Keen	-3541
Then	-3542
alid	-3543
ring	-3544
Among	-3545
Coach	-3546
Image	-3547
Labor	-3548
Legal	-3549
Local	-3550
Moral	-3551
Renew	-3552
Reply	-3553
Store	-3554
Track	-3555
Worry	-3556
rigin	-3557
utput	-3558
Agency	-3559
Artist	-3560
Course	-3561
Degree	-3562
Emerge	-3563
Evolve	-3564
Except	-3565
Hazard	-3566
Honest	-3567
Legacy	-3568
Likely	-3569
Listen	-3570
Native	-3571
Remain	-3572
Remote	-3573
Simple	-3574
Smooth	-3575
Source	-3576
Stress	-3577
ariety	-3578
bserve	-3579
enuine	-3580
perate	-3581
ualify	-3582
uarter	-3583
Address	-3584
Advance	-3585
Ceiling	-3586
Certain	-3587
Climate	-3588
Connect	-3589
Consume	-3590
Content	-3591
Control	-3592
Culture	-3593
Exactly	-3594
Example	-3595
However	-3596
Inquiry	-3597
Invoice	-3598
Isolate	-3599
Journey	-3600
Perform	-3601
Receipt	-3602
Satisfy	-3603
Shallow	-3604
ltimate	-3605
pponent	-3606
Attitude	-3607
Calendar	-3608
Customer	-3609
Distinct	-3610
Industry	-3611
Language	-3612
Mountain	-3613
Positive	-3614
Relative	-3615
Resident	-3616
Somewhat	-3617
Strategy	-3618
Strength	-3619
Surround	-3620
Withdraw	-3621
nrelated	-3622
peration	-3623
Attention	-3624
Interrupt	-3625
Narrative	-3626
Substance	-3627
Conference	-3628
Discipline	-3629
Foundation	-3630
Tremendous	-3631
Legislation	-3632
Participate	-3633
Er	-3634
Es	-3635
And	-3636
Err	-3637
Cond	-3638
Debt	-3639
Flow	-3640
Hint	-3641
Less	-3642
Part	-3643
Rati	-3644
Rely	-3645
Role	-3646
Warn	-3647
egin	-3648
Draft	-3649
Equip	-3650
Error	-3651
Every	-3652
Favor	-3653
Field	-3654
Final	-3655
Habit	-3656
Large	-3657
Ratio	-3658
Scale	-3659
Sense	-3660
Stale	-3661
Treat	-3662
Trust	-3663
ridge	-3664
urden	-3665
Affect	-3666
Always	-3667
Debate	-3668
Double	-3669
Effect	-3670
Enable	-3671
Engage	-3672
Farmer	-3673
Header	-3674
League	-3675
Notice	-3676
Recall	-3677
Recent	-3678
Refuse	-3679
Regard	-3680
Resist	-3681
Shrink	-3682
Sudden	-3683
Survey	-3684
Theory	-3685
niform	-3686
nknown	-3687
radual	-3688
utline	-3689
Already	-3690
Attempt	-3691
Classic	-3692
College	-3693
Consult	-3694
Correct	-3695
Counter	-3696
Disease	-3697
Educate	-3698
Explore	-3699
Fashion	-3700
Finance	-3701
Forward	-3702
Justice	-3703
Liberty	-3704
Library	-3705
Morning	-3706
Natural	-3707
Partner	-3708
Profile	-3709
Restore	-3710
Suggest	-3711
Sustain	-3712
Typical	-3713
Whether	-3714
Approach	-3715
Contract	-3716
Evidence	-3717
External	-3718
Minority	-3719
Musician	-3720
Perceive	-3721
Presence	-3722
Resource	-3723
Schedule	-3724
Suitable	-3725
ariation	-3726
bjective	-3727
niversal	-3728
Advantage	-3729
Community	-3730
Condition	-3731
Construct	-3732
Efficient	-3733
Establish	-3734
Incentive	-3735
Precisely	-3736
Realistic	-3737
Recognize	-3738
Reinforce	-3739
Scientist	-3740
Sensitive	-3741
Structure	-3742
Tradition	-3743
Equivalent	-3744
Innovation	-3745
Transition	-3746
Intelligence	-3747
Simultaneous	-3748
Ig	-3749
Pl	-3750
All	-3751
Est	-3752
Ign	-3753
Mar	-3754
▁	-3755
e	-3756
a	-3757
t	-3758
i	-3759
r	-3760
o	-3761
n	-3762
s	-3763
l	-3764
h	-3765
.	-3766
m	-3767
d	-3768
c	-3769
f	-3770
u	-3771
p	-3772
v	-3773
g	-3774
b	-3775
y	-3776
x	-3777
w	-3778
?	-3779
"	-3780
+	-3781
/	-3782
W	-3783
,	-3784
=	-3785
k	-3786
$	-3787
-	-3788
%	-3789
:	-3790
q	-3791
C	-3792
S	-3793
^	-3794
<	-3795
>	-3796
(	-3797
)	-3798
H	-3799
T	-3800
A	-3801
_	-3802
{	-3803
}	-3804
E	-3805
F	-3806
*	-3807
z	-3808
P	-3809
M	-3810
L	-3811
D	-3812
R	-3813
j	-3814
K	-3815
×	-3816
N	-3817
J	-3818
°	-3819
I	-3820
